00001001000001111110101111110011
00000110000100001111101011111011
11100101111100010000110000000011
11100000110111011101111100010010
00011101000110010000001100000000
00010001000111110001001000110001
00011101000000000000000000000000
00010000000111111111010011110101
11111010111110100001101100000000
11111001111100001110000011110111
00011110000011000000001111110011
11110011000011001111011111110011
11101110000010010000111011111000
11111010000000000000000000000000
00000100000001001111100111101011
11111110111101100000000011101001
11011110111100100000111000010100
00010101000110110010000011101101
11111011000110010010110000101001
11000111111000000001010100101011
00101000000000000000000000000000
00010101000111000000101000000011
11101011111101100010111100011111
11011101111010100000101100101101
00001010111100011101010100010011
00101001000100011110101011010011
00001010001011010000010011011010
11100010000000000000000000000000
00101111001010011111101111011111
11010101111111011110000111100001
11110011000100101100110011101010
11111111001011100011010111100010
00000111001001000001011100001010
00100100000100111111011011101001
11001010000000000000000000000000
11111110000001011111010111011001
11011011000011000001110011110001
00001110001111110000011100010110
00000001000111000010101000010100
00101011000110011111110111100001
11111101001000011111101011100100
11010011000000000000000000000000
11101001111110000001010100101100
00100011110111011110110011010001
11101111111111101111110011100010
11000101110011001110000100100001
00010001000100111111011111111001
00101011000111010011000000101001
00000111000000000000000000000000
00001111000010100000010000100100
11111100000101010001100100011000
00010110001000110010001100010111
00000110111111010010011000010110
00001001110111101111000011101001
11101000110010001101100111011000
11111011000000000000000000000000
00001011000110111111010111101001
11101101000101110000001000001101
11111110000001000000100000000101
00000100111111100000000000001110
00000101000000010001010011100011
00000011000111000000101111111101
11100001000000000000000000000000
00001000111011101111110011110101
11110011000100100001101100011011
00101110000111100000011100011001
00001101000101110010011011111111
00000101111110001111110000011110
11001011110111111100100111011001
11111000000000000000000000000000
11110110000000100001011111111000
11110011111110001111001100011010
00000101000000111111011100001101
00011000001000100001110011110001
11110101111111110001101100010111
11100101111001001110000100001001
00000111000000000000000000000000
11101111000010101110111011111010
00001000000000101110110011101110
00010100000010110001011111111100
00001000000000100000100011110010
00000111000001110000011100000001
11101101000011101111100000001111
11111011000000000000000000000000
11101111111101011110111100000110
00010000111000001111110100010001
00010100000001111111010000000101
00010000000001010000100000100000
11111111111111000001001000001010
00010001000010011111001100001011
00011010000000000000000000000000
00000000000101010001100000011110
11111101110111110000001000111010
00100111111010100000101100100101
00110001000111001111011100000011
00010101000111000001011011101001
11111110000101100010100011111011
11110000000000000000000000000000
11111111000110000000100000010011
00000010000100110000010000011000
00010010000111101111001011101001
11110101001010010011000100001000
11111111110110101110001100000010
11100111111101011101100111011010
11100100000000000000000000000000
11000110111111110000100000110101
01000011001010000010110100101001
01001101010010000100101101000011
00101010000010010010000111111011
11011101110001101010101010101010
11001110101010001010001111000011
00000111000000000000000000000000
00101010000111100000111100100110
00100010000101110010101000100111
00011010001000011111100011111001
00100000001001110001010011001010
11010111111010110000010100101000
11001001101110111101011111101010
00011110000000000000000000000000
11101111111111001111001011110111
00000111111100110000100000010001
00000000111100101111100100000100
11110001000010001110111011101110
11101101111111000000110111101110
00010010111101110000011100000010
11101111000000000000000000000000
00010001000110110010111100100001
11111000000110100001011100011100
11100111110111000000000000000010
11110111110010101110110100011000
11111110110110001101101111111110
00001011000100110000011000000111
00010111000000000000000000000000
11100101110001001101000111001000
11110001000000111111000111101010
00000010000001100100000001000000
00110101000101010000101000000100
00001111000110110000001000010000
11100000110111110000000000011111
00010010000000000000000000000000
11001011000010010001001000100111
00110100111101110001000100010011
00010100001010000000101000100101
00001011000000110001110100001010
00000011000000001111110011110110
11110111110111101110010011001101
11101111000000000000000000000000
11111001001001110000101011111101
11101111001001000010011011101010
11011011111010110001101100000011
11011101111011000000111011111111
11111011111010011111100000010101
00001010111010001111101111111111
00011110000000000000000000000000
11100011110100101111000111011101
11111110111000001101111011101001
00001100000010111110010011111001
00010101000111111111100000110001
00011011000011100001001100000000
00110100001010001111110111110101
11111011000000000000000000000000
00000001111001101101100111111111
00101100110110011100100111011011
00001100001101111100111111100010
11111110001100000100010011001000
11001111111101000100101000101111
11100100111010000010001101000001
00100010000000000000000000000000
11100110111001001110010100001010
11101100000001000001011100000001
11111000111111100001000100000101
00011100000001110001000100011000
00100010000000010001001100000011
11110111001001100000100111110100
11110110000000000000000000000000
11110010001000000000010111101001
11111101000101100001000100000001
11110111000001110000100100000000
11101010111011010000100111111101
00001001000001011111110011101110
00010000111110000000110011100111
11110111000000000000000000000000
00010110000011000001111011101010
11001010111111000010010000110011
00000010000000100000010100010000
00100100000001010001000000011100
00000000000100110001000100011111
11101001000000010000010000011000
00011010000000000000000000000000
00010010000010100001010100010010
11110101001000101111010000000010
00001011000100000001000011111010
11101111000111000000110100000011
11111000000010110001111000000110
11100100000100001111000000000100
00001100000000000000000000000000
11111001000001011110100111111101
11110100111111101111111100001101
11111000000110101111110111110100
11101101111100100010001111111010
11111101000000100000110100011001
00001111111100001111101111110101
11111011000000000000000000000000
00010010001011000000011100001001
11100110000100100011011100000111
11101101110110000010110100101001
11111110111011001101010100011000
00100010000011111101100011101100
00100100001001001110110111100000
11100101000000000000000000000000
11100000000000100001101000011011
00001100111101011111110000100000
00010001000000001111101100010000
00000100001000110000011011110011
00000100000111110000000100000100
00000011111101010001100100010000
00000110000000000000000000000000
11110011000110101111011000010000
11100100111011100001010100001001
00000110111101001111101100000000
11110110000010100000100000000010
00000101000100110000100100000000
11110101111011001110110011111101
00000001000000000000000000000000
